{
  "0": "\u0000",
  "1": "\u0001",
  "2": "\u0002",
  "3": "\u0003",
  "4": "\u0004",
  "5": "\u0005",
  "6": "\u0006",
  "7": "\u0007",
  "8": "\b",
  "9": "\t",
  "10": "\n",
  "11": "\u000b",
  "12": "\f",
  "13": "\r",
  "14": "\u000e",
  "15": "\u000f",
  "16": "\u0010",
  "17": "\u0011",
  "18": "\u0012",
  "19": "\u0013",
  "20": "\u0014",
  "21": "\u0015",
  "22": "\u0016",
  "23": "\u0017",
  "24": "\u0018",
  "25": "\u0019",
  "26": "\u001a",
  "27": "\u001b",
  "28": "\u001c",
  "29": "\u001d",
  "30": "\u001e",
  "31": "\u001f",
  "32": " ",
  "33": "!",
  "34": "\"",
  "35": "#",
  "36": "$",
  "37": "%",
  "38": "&",
  "39": "'",
  "40": "(",
  "41": ")",
  "42": "*",
  "43": "+",
  "44": ",",
  "45": "-",
  "46": ".",
  "47": "/",
  "48": "0",
  "49": "1",
  "50": "2",
  "51": "3",
  "52": "4",
  "53": "5",
  "54": "6",
  "55": "7",
  "56": "8",
  "57": "9",
  "58": ":",
  "59": ";",
  "60": "<",
  "61": "=",
  "62": ">",
  "63": "?",
  "64": "@",
  "65": "A",
  "66": "B",
  "67": "C",
  "68": "D",
  "69": "E",
  "70": "F",
  "71": "G",
  "72": "H",
  "73": "I",
  "74": "J",
  "75": "K",
  "76": "L",
  "77": "M",
  "78": "N",
  "79": "O",
  "80": "P",
  "81": "Q",
  "82": "R",
  "83": "S",
  "84": "T",
  "85": "U",
  "86": "V",
  "87": "W",
  "88": "X",
  "89": "Y",
  "90": "Z",
  "91": "[",
  "92": "\\",
  "93": "]",
  "94": "^",
  "95": "_",
  "96": "`",
  "97": "a",
  "98": "b",
  "99": "c",
  "100": "d",
  "101": "e",
  "102": "f",
  "103": "g",
  "104": "h",
  "105": "i",
  "106": "j",
  "107": "k",
  "108": "l",
  "109": "m",
  "110": "n",
  "111": "o",
  "112": "p",
  "113": "q",
  "114": "r",
  "115": "s",
  "116": "t",
  "117": "u",
  "118": "v",
  "119": "w",
  "120": "x",
  "121": "y",
  "122": "z",
  "123": "{",
  "124": "|",
  "125": "}",
  "126": "~",
  "127": "\u007f",
  "128": "\u0080",
  "129": "\u0081",
  "130": "\u0082",
  "131": "\u0083",
  "132": "\u0084",
  "133": "\u0085",
  "134": "\u0086",
  "135": "\u0087",
  "136": "\u0088",
  "137": "\u0089",
  "138": "\u008a",
  "139": "\u008b",
  "140": "\u008c",
  "141": "\u008d",
  "142": "\u008e",
  "143": "\u008f",
  "144": "\u0090",
  "145": "\u0091",
  "146": "\u0092",
  "147": "\u0093",
  "148": "\u0094",
  "149": "\u0095",
  "150": "\u0096",
  "151": "\u0097",
  "152": "\u0098",
  "153": "\u0099",
  "154": "\u009a",
  "155": "\u009b",
  "156": "\u009c",
  "157": "\u009d",
  "158": "\u009e",
  "159": "\u009f",
  "160": "\u00a0",
  "161": "\u00a1",
  "162": "\u00a2",
  "163": "\u00a3",
  "164": "\u00a4",
  "165": "\u00a5",
  "166": "\u00a6",
  "167": "\u00a7",
  "168": "\u00a8",
  "169": "\u00a9",
  "170": "\u00aa",
  "171": "\u00ab",
  "172": "\u00ac",
  "173": "\u00ad",
  "174": "\u00ae",
  "175": "\u00af",
  "176": "\u00b0",
  "177": "\u00b1",
  "178": "\u00b2",
  "179": "\u00b3",
  "180": "\u00b4",
  "181": "\u00b5",
  "182": "\u00b6",
  "183": "\u00b7",
  "184": "\u00b8",
  "185": "\u00b9",
  "186": "\u00ba",
  "187": "\u00bb",
  "188": "\u00bc",
  "189": "\u00bd",
  "190": "\u00be",
  "191": "\u00bf",
  "192": "\u00c0",
  "193": "\u00c1",
  "194": "\u00c2",
  "195": "\u00c3",
  "196": "\u00c4",
  "197": "\u00c5",
  "198": "\u00c6",
  "199": "\u00c7",
  "200": "\u00c8",
  "201": "\u00c9",
  "202": "\u00ca",
  "203": "\u00cb",
  "204": "\u00cc",
  "205": "\u00cd",
  "206": "\u00ce",
  "207": "\u00cf",
  "208": "\u00d0",
  "209": "\u00d1",
  "210": "\u00d2",
  "211": "\u00d3",
  "212": "\u00d4",
  "213": "\u00d5",
  "214": "\u00d6",
  "215": "\u00d7",
  "216": "\u00d8",
  "217": "\u00d9",
  "218": "\u00da",
  "219": "\u00db",
  "220": "\u00dc",
  "221": "\u00dd",
  "222": "\u00de",
  "223": "\u00df",
  "224": "\u00e0",
  "225": "\u00e1",
  "226": "\u00e2",
  "227": "\u00e3",
  "228": "\u00e4",
  "229": "\u00e5",
  "230": "\u00e6",
  "231": "\u00e7",
  "232": "\u00e8",
  "233": "\u00e9",
  "234": "\u00ea",
  "235": "\u00eb",
  "236": "\u00ec",
  "237": "\u00ed",
  "238": "\u00ee",
  "239": "\u00ef",
  "240": "\u00f0",
  "241": "\u00f1",
  "242": "\u00f2",
  "243": "\u00f3",
  "244": "\u00f4",
  "245": "\u00f5",
  "246": "\u00f6",
  "247": "\u00f7",
  "248": "\u00f8",
  "249": "\u00f9",
  "250": "\u00fa",
  "251": "\u00fb",
  "252": "\u00fc",
  "253": "\u00fd",
  "254": "\u00fe",
  "255": "\u00ff",
  "256": " }",
  "257": " {",
  "258": " \\",
  "259": " _",
  "260": " ^",
  "261": " )",
  "262": " (",
  "263": " -",
  "264": " =",
  "265": " ,",
  "266": "ra",
  "267": " +",
  "268": "rac",
  "269": "frac",
  "270": "al",
  "271": "ar",
  "272": "ta",
  "273": "ri",
  "274": " i",
  "275": "ma",
  "276": "ph",
  "277": "le",
  "278": " x",
  "279": "ti",
  "280": "si",
  "281": " \\,",
  "282": "mu",
  "283": " .",
  "284": " a",
  "285": " n",
  "286": "ft",
  "287": " d",
  "288": "am",
  "289": "me",
  "290": "eta",
  "291": "gh",
  "292": "ght",
  "293": "right",
  "294": "in",
  "295": "left",
  "296": "th",
  "297": "de",
  "298": " .\n",
  "299": " k",
  "300": "par",
  "301": " r",
  "302": "parti",
  "303": "partial",
  "304": " m",
  "305": " e",
  "306": "pha",
  "307": "alpha",
  "308": " &",
  "309": " ~",
  "310": " c",
  "311": " p",
  "312": "da",
  "313": " j",
  "314": " A",
  "315": " ,\n",
  "316": " \\;",
  "317": "phi",
  "318": " t",
  "319": "psi",
  "320": "nu",
  "321": "math",
  "322": "pri",
  "323": "prime",
  "324": "amb",
  "325": "ambda",
  "326": " g",
  "327": " b",
  "328": "ot",
  "329": "cal",
  "330": " \\\\",
  "331": " l",
  "332": "dot",
  "333": " z",
  "334": "amma",
  "335": " s",
  "336": "rm",
  "337": "mathrm",
  "338": "qu",
  "339": "pi",
  "340": "bar",
  "341": "del",
  "342": "delta",
  "343": " |",
  "344": " q",
  "345": "gma",
  "346": "lambda",
  "347": " N",
  "348": "beta",
  "349": " f",
  "350": " ]",
  "351": "int",
  "352": " R",
  "353": "ve",
  "354": " D",
  "355": "meg",
  "356": "mega",
  "357": " T",
  "358": " M",
  "359": "on",
  "360": "sigma",
  "361": "qua",
  "362": "quad",
  "363": " B",
  "364": "lon",
  "365": " L",
  "366": " y",
  "367": "hi",
  "368": " [",
  "369": " }\n",
  "370": "rt",
  "371": "at",
  "372": "psilon",
  "373": "hat",
  "374": " F",
  "375": "til",
  "376": "tilde",
  "377": "epsilon",
  "378": "gamma",
  "379": "arra",
  "380": "array",
  "381": "{array",
  "382": "ho",
  "383": " /",
  "384": "rho",
  "385": "su",
  "386": " S",
  "387": "theta",
  "388": " u",
  "389": "sum",
  "390": "sq",
  "391": "sqrt",
  "392": "ng",
  "393": "ngle",
  "394": "bf",
  "395": "var",
  "396": "tau",
  "397": " h",
  "398": " H",
  "399": " C",
  "400": " X",
  "401": " G",
  "402": " P",
  "403": "omega",
  "404": "la",
  "405": " I",
  "406": " V",
  "407": " E",
  "408": "Phi",
  "409": "ig",
  "410": "dots",
  "411": "be",
  "412": "vec",
  "413": "ro",
  "414": "xi",
  "415": " J",
  "416": " v",
  "417": "en",
  "418": "beg",
  "419": "begin",
  "420": "end",
  "421": "ge",
  "422": "Gamma",
  "423": " Q",
  "424": " o",
  "425": "rangle",
  "426": " K",
  "427": "lin",
  "428": "line",
  "429": "inft",
  "430": "infty",
  "431": "rline",
  "432": "varphi",
  "433": "ap",
  "434": "Lambda",
  "435": " *",
  "436": " U",
  "437": "app",
  "438": "pm",
  "439": " ;",
  "440": " W",
  "441": " )\n",
  "442": " w",
  "443": "Omega",
  "444": "qquad",
  "445": " Z",
  "446": "chi",
  "447": "kapp",
  "448": "kappa",
  "449": " \\}",
  "450": " \\!",
  "451": "row",
  "452": "st",
  "453": "Psi",
  "454": "arrow",
  "455": "ove",
  "456": "equ",
  "457": "equi",
  "458": "equiv",
  "459": "cdot",
  "460": "overline",
  "461": "big",
  "462": "rightarrow",
  "463": "langle",
  "464": "dag",
  "465": "dagge",
  "466": "dagger",
  "467": "Big",
  "468": "time",
  "469": "times",
  "470": "\\{",
  "471": "zeta",
  "472": "el",
  "473": " \\{",
  "474": "bla",
  "475": "na",
  "476": "nabla",
  "477": " >",
  "478": "\\left",
  "479": "cdots",
  "480": "varepsilon",
  "481": " O",
  "482": "\\frac",
  "483": "ldots",
  "484": "tri",
  "485": " Y",
  "486": "mathcal",
  "487": "Si",
  "488": "Sigma",
  "489": "wi",
  "490": "wide",
  "491": " :",
  "492": "ed",
  "493": " <",
  "494": "{ma",
  "495": "{matri",
  "496": "{matrix",
  "497": " !",
  "498": "ell",
  "499": "pro",
  "500": "sty",
  "501": "style",
  "502": "}\n",
  "503": "Pi",
  "504": "wed",
  "505": "wedge",
  "506": "otimes",
  "507": "\\delta",
  "508": "un",
  "509": "unde",
  "510": ")\n",
  "511": " \\:",
  "512": "prod",
  "513": "\\begin",
  "514": "underline",
  "515": "vert",
  "516": "sim",
  "517": "bigg",
  "518": "widetilde",
  "519": "Th",
  "520": "Theta",
  "521": "to",
  "522": "mathbf",
  "523": "\\langle",
  "524": "hbar",
  "525": "ck",
  "526": "mi",
  "527": "\\}",
  "528": "mid",
  "529": "sp",
  "530": "di",
  "531": "disp",
  "532": "displa",
  "533": "display",
  "534": "displaystyle",
  "535": "\\partial",
  "536": "\\tilde",
  "537": "leq",
  "538": "\\int",
  "539": "\\hat",
  "540": "sta",
  "541": "stack",
  "542": "stackr",
  "543": "stackrel",
  "544": "ast",
  "545": "star",
  "546": "er",
  "547": "appro",
  "548": "approx",
  "549": "per",
  "550": "perp",
  "551": "te",
  "552": "widehat",
  "553": "ox",
  "554": "\\phi",
  "555": "\\sum",
  "556": "\\mathrm",
  "557": "tstyle",
  "558": "tex",
  "559": "\\Gamma",
  "560": "Bigr",
  "561": "\\psi",
  "562": "grightarrow",
  "563": "op",
  "564": "Bigl",
  "565": " ]\n",
  "566": "sc",
  "567": ".\n",
  "568": "brac",
  "569": "Box",
  "570": "bb",
  "571": "geq",
  "572": "\\Phi",
  "573": "mp",
  "574": "ne",
  "575": "longrightarrow",
  "576": "\\bar",
  "577": "\\rangle",
  "578": "scri",
  "579": "scrip",
  "580": "sime",
  "581": "simeq",
  "582": "]\n",
  "583": "us",
  "584": "\\gamma",
  "585": "textstyle",
  "586": "opl",
  "587": "oplus",
  "588": "\\Psi",
  "589": "biggl",
  "590": "\\alpha",
  "591": "\\Omega",
  "592": "biggr",
  "593": "ddot",
  "594": "neq",
  "595": "oint",
  "596": "mathbb",
  "597": "rc",
  "598": "ral",
  "599": "se",
  "600": "\\rho",
  "601": "ci",
  "602": "circ",
  "603": "\\lambda",
  "604": "onu",
  "605": "\\sigma",
  "606": "vartheta",
  "607": "\\omega",
  "608": "Bigg",
  "609": "\\epsilon",
  "610": "tag",
  "611": "angle",
  "612": "triangle",
  "613": "bigr",
  "614": "not",
  "615": "bigl",
  "616": " --",
  "617": "\\mathcal",
  "618": "\\dot",
  "619": "\\eta",
  "620": "leftrightarrow",
  "621": "\\chi",
  "622": "Xi",
  "623": "{al",
  "624": "{alig",
  "625": "{align",
  "626": "{aligned",
  "627": "nonu",
  "628": "nonum",
  "629": "nonumbe",
  "630": "nonumber",
  "631": " \\,\n",
  "632": "brack",
  "633": "\\beta",
  "634": "\\nabla",
  "635": "ch",
  "636": "che",
  "637": "script",
  "638": "check",
  "639": "brace",
  "640": "\\Lambda",
  "641": "\\zeta",
  "642": " ;\n",
  "643": "\\Pi",
  "644": "\\xi",
  "645": "prop",
  "646": "propto",
  "647": "bot",
  "648": "over",
  "649": "\\vec",
  "650": "\\mu",
  "651": "scriptstyle",
  "652": "\\overline",
  "653": "\\tau",
  "654": "imath",
  "655": "\\theta",
  "656": "sf",
  "657": "varrho",
  "658": " \\}\n",
  "659": "\\pi",
  "660": "bo",
  "661": "bol",
  "662": "text",
  "663": "lbrack",
  "664": "set",
  "665": "mathf",
  "666": "mathfra",
  "667": "mathfrak",
  "668": "sto",
  "669": "psto",
  "670": "pa",
  "671": "paral",
  "672": "paralle",
  "673": "parallel",
  "674": "\\varphi",
  "675": "fo",
  "676": "foral",
  "677": "forall",
  "678": "Ri",
  "679": "Right",
  "680": "Rightarrow",
  "681": "mapsto",
  "682": "\\Sigma",
  "683": "it",
  "684": "\\}\n",
  "685": "rbrace",
  "686": "textrm",
  "687": "sub",
  "688": "vdots",
  "689": " \\|",
  "690": "{c",
  "691": "{ca",
  "692": "{case",
  "693": "{cases",
  "694": "phan",
  "695": "phanto",
  "696": "phantom",
  "697": "\\ddot",
  "698": "om",
  "699": "ong",
  "700": "do",
  "701": "dow",
  "702": "down",
  "703": "\\vert",
  "704": "re",
  "705": "\\widetilde",
  "706": "up",
  "707": "ddots",
  "708": "\\varepsilon",
  "709": "\\Theta",
  "710": "scriptscriptstyle",
  "711": "ll",
  "712": "bre",
  "713": "breve",
  "714": "bin",
  "715": "binom",
  "716": "ze",
  "717": "\\widehat",
  "718": "size",
  "719": "io",
  "720": "iota",
  "721": "overrightarrow",
  "722": "wp",
  "723": "scriptsize",
  "724": "bbox",
  "725": "tin",
  "726": "tiny",
  "727": "Biggr",
  "728": "upar",
  "729": "uparrow",
  "730": "\\nu",
  "731": "ac",
  "732": "\\kappa",
  "733": "subset",
  "734": "Biggl",
  "735": "mathsf",
  "736": "jmath",
  "737": "cong",
  "738": "Upsilon",
  "739": "sy",
  "740": "cap",
  "741": "bold",
  "742": "boldsy",
  "743": "boldsym",
  "744": "boldsymbol",
  "745": " >\n",
  "746": "downarrow",
  "747": "cup",
  "748": " =\n",
  "749": "atop",
  "750": "upsilon",
  "751": "\\sqrt",
  "752": "underbrace",
  "753": "hline",
  "754": " \"",
  "755": "har",
  "756": "harp",
  "757": "leftarrow",
  "758": "sm",
  "759": "smal",
  "760": "small",
  "761": "\\Box",
  "762": "vee",
  "763": "\\lbrack",
  "764": "\\|",
  "765": "rbrack",
  "766": "spac",
  "767": "space",
  "768": "bigtriangle",
  "769": " \\;\n",
  "770": "\\stackrel",
  "771": "gg",
  "772": "bigoplus",
  "773": "\\mathbf",
  "774": "harpo",
  "775": "mathsc",
  "776": "mathscr",
  "777": "Im",
  "778": "rightharpo",
  "779": "rightharpoonu",
  "780": "rightharpoonup",
  "781": "sla",
  "782": "Re",
  "783": "bu",
  "784": "bul",
  "785": "bulle",
  "786": "bullet",
  "787": "mit",
  "788": " \\\n",
  "789": "squ",
  "790": "squar",
  "791": "square",
  "792": "lbrace",
  "793": "\\prod",
  "794": " +\n",
  "795": "Lon",
  "796": "Longrightarrow",
  "797": " \\#",
  "798": "varsigma",
  "799": "\\bigl",
  "800": "Le",
  "801": "Left",
  "802": "Leftrightarrow",
  "803": "\\Big",
  "804": "\\triangle",
  "805": "slan",
  "806": "slant",
  "807": "or",
  "808": " -\n",
  "809": "long",
  "810": " ~\n",
  "811": "\\Xi",
  "812": "varpi",
  "813": "\\Bigl",
  "814": "\\displaystyle",
  "815": "bigtriangledown",
  "816": "Long",
  "817": " :\n",
  "818": "\\oint",
  "819": "enspace",
  "820": " \\_",
  "821": "\\big",
  "822": "leqslant",
  "823": "bigtriangleup",
  "824": "longleftrightarrow",
  "825": "Longleftrightarrow",
  "826": "fl",
  "827": "arge",
  "828": "\\mid",
  "829": " |\n",
  "830": "acu",
  "831": "acute",
  "832": "tt",
  "833": "textbf",
  "834": "co",
  "835": "eq",
  "836": "od",
  "837": "sh",
  "838": "overbrace",
  "839": "subse",
  "840": "subsete",
  "841": "subseteq",
  "842": "\\times",
  "843": "mod",
  "844": "vphantom",
  "845": "overset",
  "846": "doteq",
  "847": "varkappa",
  "848": "\\ell",
  "849": "flo",
  "850": "floor",
  "851": "box",
  "852": "colon",
  "853": "\\check",
  "854": " (\n",
  "855": "mathop",
  "856": "mathit",
  "857": "slash",
  "858": "\\biggl",
  "859": " `",
  "860": "bigcup",
  "861": "ba",
  "862": "back",
  "863": "thin",
  "864": "thinspace",
  "865": "ale",
  "866": "aleph",
  "867": "overleftarrow",
  "868": "Ve",
  "869": "Vert",
  "870": "backslash",
  "871": "\\square",
  "872": "ru",
  "873": "nd",
  "874": "under",
  "875": "underset",
  "876": "\\underline",
  "877": "\\overrightarrow",
  "878": "\\pm",
  "879": "\\lbrace",
  "880": "bigotimes",
  "881": "cdotp",
  "882": " \\&",
  "883": "\\vartheta",
  "884": "\\breve",
  "885": "fbox",
  "886": "\\hbar",
  "887": " ?",
  "888": "large",
  "889": "lrc",
  "890": "lrcor",
  "891": "lrcorn",
  "892": "lrcorner",
  "893": "\\qquad",
  "894": "rfloor",
  "895": "Large",
  "896": "stru",
  "897": "strut",
  "898": "ni",
  "899": "les",
  "900": "less",
  "901": "lesssim",
  "902": "sup",
  "903": "supset",
  "904": "inus",
  "905": "nat",
  "906": "natu",
  "907": "natural",
  "908": "bmod",
  "909": "odot",
  "910": "\\mathbb",
  "911": "\\fbox",
  "912": "\\sim",
  "913": "\\nonumber",
  "914": ">\n",
  "915": "\\bigg",
  "916": "gt",
  "917": "gtr",
  "918": "bigcap",
  "919": "\\varrho",
  "920": " ---",
  "921": "\\not",
  "922": "substack",
  "923": "\\mathfrak",
  "924": "|\n",
  "925": "\\Re",
  "926": "gtrsim",
  "927": "\\Biggl",
  "928": "texti",
  "929": "textit",
  "930": "\\,",
  "931": "hoo",
  "932": "hook",
  "933": "ew",
  "934": "no",
  "935": "longma",
  "936": "longmapsto",
  "937": " !\n",
  "938": "land",
  "939": "lfloor",
  "940": "sharp",
  "941": "\\textrm",
  "942": "emp",
  "943": "empt",
  "944": "empty",
  "945": "emptyset",
  "946": "ren",
  "947": "renew",
  "948": "renewc",
  "949": "renewcom",
  "950": "renewcomma",
  "951": "renewcommand",
  "952": "\\star",
  "953": "pmb",
  "954": "longleftarrow",
  "955": "diam",
  "956": "diamon",
  "957": "diamond",
  "958": "\\#",
  "959": "smallint",
  "960": "\\cdot",
  "961": "\\Upsilon",
  "962": "textsf",
  "963": "hookrightarrow",
  "964": "\\renewcommand",
  "965": "arrayst",
  "966": "arraystre",
  "967": "arraystret",
  "968": "arraystretch",
  "969": "flat",
  "970": "\\rbrack",
  "971": "top",
  "972": "geqslant",
  "973": "ominus",
  "974": "\\!",
  "975": "setm",
  "976": "setminus",
  "977": "\\bf",
  "978": "ce",
  "979": "il",
  "980": "\\quad",
  "981": "bigwedge",
  "982": "\\varpi",
  "983": "lap",
  "984": "sma",
  "985": "smash",
  "986": "\\bigtriangleup",
  "987": "neg",
  "988": "\\bbox",
  "989": "lce",
  "990": "lceil",
  "991": "boxed",
  "992": "lo",
  "993": "coprod",
  "994": "\\leq",
  "995": "\\textstyle",
  "996": "rule",
  "997": "overleftrightarrow",
  "998": "\\Bigr",
  "999": "\\forall",
  "1000": "Longleftarrow",
  "1001": "suc",
  "1002": "succ",
  "1003": "with",
  "1004": "withdel",
  "1005": "withdeli",
  "1006": "withdelim",
  "1007": "withdelims",
  "1008": "\\cal",
  "1009": "\\mathsf",
  "1010": "exi",
  "1011": "exist",
  "1012": "exists",
  "1013": " cm",
  "1014": "lt",
  "1015": "\\boldsymbol",
  "1016": "thi",
  "1017": "thick",
  "1018": "notag",
  "1019": "notin",
  "1020": "\\Im",
  "1021": "\\dots",
  "1022": "frow",
  "1023": "frown"
}